// PhishingWebsites_esp32.h
// This model data was generated on Mon Oct 28 20:35:32 2024
// Python: 3.11.0 (main, Oct 24 2022, 18:26:48) [MSC v.1933 64 bit (AMD64)]
// Numpy: 1.26.4
// TensorFlow/Keras Version: 2.15.0

#ifndef PHISHINGWEBSITES_ESP32_H
#define PHISHINGWEBSITES_ESP32_H

// Model data for phishing website detection can go here
// Define the model architecture, weights, etc.
// Example:
// const uint8_t model_data[] = { /* model weights and data */ };

const int DENSE1_SIZE = 64;
const int DENSE2_SIZE = 32;

const unsigned int PhishingWebsites_esp32_len = 8480;
alignas(8) const unsigned char PhishingWebsites_esp32[] = {
0x20,0x00,0x00,0x00,0x54,0x46,0x4c,0x33,0x00,0x00,0x00,0x00,
0x14,0x00,0x20,0x00,0x1c,0x00,0x18,0x00,0x14,0x00,0x10,0x00,
0x0c,0x00,0x00,0x00,0x08,0x00,0x04,0x00,0x14,0x00,0x00,0x00,
0x1c,0x00,0x00,0x00,0x84,0x00,0x00,0x00,0xdc,0x00,0x00,0x00,
0xb0,0x14,0x00,0x00,0xc0,0x14,0x00,0x00,0x80,0x20,0x00,0x00,
0x03,0x00,0x00,0x00,0x01,0x00,0x00,0x00,0x04,0x00,0x00,0x00,
0xda,0xea,0xff,0xff,0x0c,0x00,0x00,0x00,0x1c,0x00,0x00,0x00,
0x3c,0x00,0x00,0x00,0x0f,0x00,0x00,0x00,0x73,0x65,0x72,0x76,
0x69,0x6e,0x67,0x5f,0x64,0x65,0x66,0x61,0x75,0x6c,0x74,0x00,
0x01,0x00,0x00,0x00,0x04,0x00,0x00,0x00,0x98,0xff,0xff,0xff,
0x0c,0x00,0x00,0x00,0x04,0x00,0x00,0x00,0x08,0x00,0x00,0x00,
0x64,0x65,0x6e,0x73,0x65,0x5f,0x31,0x37,0x00,0x00,0x00,0x00,
0x01,0x00,0x00,0x00,0x04,0x00,0x00,0x00,0xd6,0xeb,0xff,0xff,
0x04,0x00,0x00,0x00,0x07,0x00,0x00,0x00,0x69,0x6e,0x70,0x75,
0x74,0x5f,0x36,0x00,0x02,0x00,0x00,0x00,0x34,0x00,0x00,0x00,
0x04,0x00,0x00,0x00,0xdc,0xff,0xff,0xff,0x0f,0x00,0x00,0x00,
0x04,0x00,0x00,0x00,0x13,0x00,0x00,0x00,0x43,0x4f,0x4e,0x56,
0x45,0x52,0x53,0x49,0x4f,0x4e,0x5f,0x4d,0x45,0x54,0x41,0x44,
0x41,0x54,0x41,0x00,0x08,0x00,0x0c,0x00,0x08,0x00,0x04,0x00,
0x08,0x00,0x00,0x00,0x0e,0x00,0x00,0x00,0x04,0x00,0x00,0x00,
0x13,0x00,0x00,0x00,0x6d,0x69,0x6e,0x5f,0x72,0x75,0x6e,0x74,
0x69,0x6d,0x65,0x5f,0x76,0x65,0x72,0x73,0x69,0x6f,0x6e,0x00,
0x10,0x00,0x00,0x00,0xd0,0x13,0x00,0x00,0xc8,0x13,0x00,0x00,
0xb4,0x13,0x00,0x00,0x7c,0x13,0x00,0x00,0xec,0x12,0x00,0x00,
0xdc,0x0a,0x00,0x00,0xcc,0x09,0x00,0x00,0xbc,0x00,0x00,0x00,
0xb4,0x00,0x00,0x00,0xac,0x00,0x00,0x00,0xa4,0x00,0x00,0x00,
0x9c,0x00,0x00,0x00,0x94,0x00,0x00,0x00,0x8c,0x00,0x00,0x00,
0x6c,0x00,0x00,0x00,0x04,0x00,0x00,0x00,0x8a,0xec,0xff,0xff,
0x04,0x00,0x00,0x00,0x58,0x00,0x00,0x00,0x0c,0x00,0x00,0x00,
0x08,0x00,0x0e,0x00,0x08,0x00,0x04,0x00,0x08,0x00,0x00,0x00,
0x10,0x00,0x00,0x00,0x28,0x00,0x00,0x00,0x00,0x00,0x06,0x00,
0x08,0x00,0x04,0x00,0x06,0x00,0x00,0x00,0x04,0x00,0x00,0x00,
0x01,0x00,0x00,0x00,0xeb,0x03,0x00,0x00,0x00,0x00,0x0a,0x00,
0x10,0x00,0x0c,0x00,0x08,0x00,0x04,0x00,0x0a,0x00,0x00,0x00,
0x01,0x00,0x00,0x00,0x02,0x00,0x00,0x00,0x04,0x00,0x00,0x00,
0x06,0x00,0x00,0x00,0x32,0x2e,0x31,0x35,0x2e,0x30,0x00,0x00,
0xee,0xec,0xff,0xff,0x04,0x00,0x00,0x00,0x10,0x00,0x00,0x00,
0x31,0x2e,0x31,0x34,0x2e,0x30,0x00,0x00,0x00,0x00,0x00,0x00,
0x00,0x00,0x00,0x00,0x48,0xe1,0xff,0xff,0x4c,0xe1,0xff,0xff,
0x50,0xe1,0xff,0xff,0x54,0xe1,0xff,0xff,0x58,0xe1,0xff,0xff,
0x5c,0xe1,0xff,0xff,0x22,0xed,0xff,0xff,0x04,0x00,0x00,0x00,
0x00,0x09,0x00,0x00,0x2a,0xfc,0x13,0xf4,0xcf,0xef,0xe9,0xfb,
0xf2,0x0c,0x10,0xf9,0xfe,0xfe,0x0a,0x0b,0xfe,0x08,0x02,0xf5,
0x21,0xf9,0xe1,0xef,0xfa,0x05,0xee,0x06,0x0e,0x2f,0x02,0x1a,
0x0a,0x03,0xd6,0x21,0x19,0x0f,0x16,0xf8,0xf0,0x17,0xe7,0x06,
0x11,0x31,0x25,0x0d,0x08,0xe7,0xf2,0x0e,0x09,0xfb,0x13,0xfe,
0x26,0x16,0x2f,0x10,0x00,0xf6,0xfe,0x15,0xec,0x10,0x01,0x30,
0xf9,0x2f,0x0f,0xf5,0xc0,0x08,0xf6,0xff,0xea,0x03,0xf7,0xf9,
0x0d,0xf0,0xd7,0x11,0xfb,0x11,0x0b,0x07,0x10,0x03,0x0e,0xfc,
0x1c,0xd8,0xd6,0xfc,0x02,0xe9,0x19,0xee,0x0d,0xd7,0xe8,0x00,
0xee,0x03,0x14,0x0c,0x1c,0x06,0x1d,0xf9,0x42,0xd7,0xd8,0xfc,
0x15,0x34,0xec,0xe3,0x12,0xec,0xf2,0xeb,0x04,0xfa,0xe3,0xfe,
0x04,0x12,0xed,0x07,0xf3,0x1f,0xfc,0x13,0x1f,0x0f,0x15,0x0f,
0x01,0x08,0xee,0x26,0x33,0xf4,0x08,0xf6,0x46,0x02,0x01,0x04,
0x00,0xdb,0xf8,0x2c,0xf9,0xf9,0x14,0xf2,0xf7,0xf8,0x12,0x06,
0x12,0x0c,0x32,0x0e,0x0f,0xda,0x22,0x11,0xe3,0x00,0xff,0x54,
0x09,0xe9,0x22,0x0e,0xfc,0x10,0xf7,0x03,0x26,0xf0,0xee,0xf8,
0x09,0xff,0x01,0xf9,0x00,0xff,0x03,0xf8,0xf5,0xfe,0xfe,0x1a,
0x09,0x01,0xf5,0xff,0x09,0x1e,0xf3,0x1e,0xf8,0x09,0xf1,0xfc,
0x09,0x05,0xf5,0x08,0x42,0xdc,0x0e,0xf6,0xe0,0x04,0xfb,0x12,
0xf9,0x0c,0xf7,0xfa,0xfb,0xdf,0xf8,0xff,0xfb,0xf7,0x21,0x17,
0x2e,0xfe,0xfa,0xf3,0x14,0x31,0xfb,0xed,0xdd,0x23,0xf3,0x47,
0x26,0x0b,0xf3,0xf8,0xfd,0x06,0xf6,0x09,0xdf,0x0c,0x04,0xf0,
0xff,0x00,0xd9,0x08,0x05,0x07,0x06,0x1c,0x08,0x03,0x14,0x06,
0x0e,0xfa,0xf8,0xfb,0xfb,0x18,0x28,0x00,0x00,0xf5,0x0d,0xd6,
0x02,0x0c,0x4a,0x0f,0x2c,0x0b,0xf4,0x07,0xff,0x04,0xf1,0x05,
0xf8,0xed,0x1b,0xdf,0xff,0x02,0xff,0xef,0x06,0x00,0x14,0x1d,
0x2a,0xfa,0xdf,0x18,0x0a,0x0c,0xd3,0x17,0x23,0x58,0x12,0x2b,
0x1e,0xfa,0x11,0x1d,0xe9,0xee,0xf8,0x00,0x09,0xfb,0xf1,0x0d,
0xf4,0x17,0x00,0xed,0xfa,0xff,0xe9,0xf2,0x06,0x0a,0xff,0xfe,
0x10,0x04,0xfa,0xe8,0xfb,0x07,0xf9,0xdd,0xfa,0x4a,0x35,0x15,
0x30,0x09,0xa9,0xfe,0xfa,0x1d,0x0f,0x09,0xd3,0x19,0x16,0x01,
0x16,0x01,0x05,0x23,0xea,0x12,0xfc,0x07,0xe0,0x21,0x22,0x01,
0x14,0xf0,0x16,0xf9,0x10,0x31,0x0a,0xf2,0x08,0xd1,0xd8,0xf9,
0xe0,0x19,0x11,0x09,0xf8,0x05,0x0c,0x04,0x05,0xf3,0xff,0xfd,
0x00,0x18,0x33,0xf8,0x0a,0x00,0xf8,0xf1,0x13,0x0d,0xd7,0xf8,
0x08,0xff,0x18,0x03,0x18,0xfb,0x1f,0x06,0xf9,0x45,0x24,0x25,
0x12,0x1c,0xb4,0xfe,0x11,0xff,0xce,0x0f,0x11,0xe9,0x0f,0xff,
0xee,0xe0,0x07,0x1c,0x06,0x0b,0x11,0xe4,0xf4,0x00,0xd1,0x23,
0xd5,0x0b,0x33,0x22,0xfd,0xe0,0x06,0x11,0xe3,0x11,0x3f,0x3c,
0x26,0x3a,0x05,0xfd,0x2b,0xdb,0x03,0x03,0xc5,0x0c,0x0a,0x00,
0xfa,0x0a,0x1c,0xda,0xfd,0xfa,0x28,0xf9,0x04,0xff,0x0b,0x0c,
0x03,0x07,0x2e,0x02,0xf6,0x16,0x0d,0xfa,0x14,0x0a,0x8f,0xa6,
0x0a,0x0b,0xf8,0xed,0x14,0xe6,0xe4,0xed,0x18,0x01,0xff,0xfa,
0xf7,0xfd,0x07,0x18,0x06,0xee,0x09,0xf9,0xfb,0xfb,0xd3,0x4a,
0xdc,0x26,0x17,0x18,0x05,0x30,0xfd,0x0a,0xec,0xe5,0x2a,0x41,
0x2e,0x20,0x31,0x2a,0xf6,0xdf,0xf5,0x05,0xf1,0xfb,0xff,0xf2,
0xff,0x00,0x20,0xf5,0xff,0x10,0xe8,0xe3,0xf7,0xf9,0xfc,0xdd,
0xe4,0xf8,0xf8,0xfd,0x16,0xf4,0xf5,0x06,0x2a,0xdb,0xd1,0xee,
0x08,0x14,0x00,0xeb,0x00,0xfc,0xf6,0xee,0x40,0xdf,0xfa,0x07,
0x05,0xfc,0xdd,0x0c,0xed,0x0e,0xe2,0x01,0xec,0xfc,0x0a,0x17,
0xea,0xfe,0x06,0x04,0x07,0xec,0xff,0x00,0xeb,0x20,0x43,0x0d,
0x23,0x01,0xd3,0xda,0xe7,0x28,0xfd,0xfb,0xe9,0x16,0x05,0xf5,
0x01,0xe4,0xf7,0xfb,0xfe,0xfe,0xe5,0xf5,0x10,0xfb,0x1f,0xf8,
0x03,0xf3,0xd4,0xf8,0x03,0xe5,0x07,0x24,0xf8,0xc6,0xdd,0xd9,
0x04,0x18,0x10,0x22,0xc2,0x0e,0xeb,0xfc,0xcf,0x05,0xf9,0xf8,
0x0d,0xe1,0xf2,0xff,0xf2,0x10,0x09,0x06,0x0d,0xfe,0x32,0x27,
0x12,0xfe,0xe8,0xee,0xfb,0xe9,0x2f,0xd5,0x24,0xe9,0xdc,0xea,
0xe8,0xf8,0x2a,0x10,0x06,0x19,0x0b,0xeb,0xd2,0x0f,0x0b,0xfe,
0xf5,0xf7,0x03,0xda,0x13,0x02,0x00,0x05,0x30,0x05,0x23,0x16,
0x01,0xec,0x10,0x01,0x0a,0x05,0x12,0x30,0xf9,0xde,0x9f,0x81,
0x0c,0x14,0x0e,0x42,0xe3,0x11,0xfe,0x0a,0xe4,0x16,0x02,0xf9,
0xee,0xfc,0xf0,0x29,0xef,0xf2,0x19,0x09,0xcf,0x02,0xf4,0x1c,
0x1e,0x12,0xfc,0xef,0xf4,0x06,0x28,0xe6,0xe6,0xfc,0x91,0x91,
0x02,0x06,0x1b,0xfb,0xdf,0x24,0xe1,0xd3,0xed,0x16,0x0e,0xfb,
0xfe,0xf9,0xe7,0x47,0x08,0x04,0xd5,0xfc,0x03,0x02,0x02,0xd0,
0xe2,0xfb,0xca,0xf5,0x0d,0x0b,0x1e,0xf3,0xbf,0x0a,0xbd,0xa3,
0xe0,0x09,0x29,0x0f,0xfe,0x1a,0xe9,0xed,0xca,0xfe,0x05,0xfc,
0x0f,0xf0,0xf7,0xf6,0xf3,0x36,0xd6,0xe6,0x06,0x02,0xf2,0x09,
0x12,0xe8,0x00,0x00,0x10,0xf8,0x00,0xfb,0x10,0x8f,0xe6,0x0f,
0xe9,0xe7,0xd8,0xed,0xef,0x17,0x00,0xf5,0xdd,0x22,0x12,0x06,
0x29,0x02,0xce,0xf3,0x0e,0x11,0xec,0xed,0x1b,0xf3,0xec,0xfe,
0xe7,0xe0,0x08,0x05,0x11,0xfa,0xc8,0xf3,0xe5,0xc7,0x15,0x12,
0xea,0xc7,0x0f,0x25,0x0b,0x03,0x12,0xed,0xf1,0xfa,0xfb,0xf8,
0xf0,0x05,0x0d,0xfc,0x02,0x00,0x20,0xf8,0x0b,0x16,0x13,0xd2,
0x11,0x0b,0xf7,0xef,0xe7,0xed,0x09,0x04,0xee,0x38,0x38,0x39,
0x1d,0x0b,0xa7,0x01,0x19,0x0d,0x02,0xf9,0xf4,0xd3,0x01,0x07,
0x1d,0xdb,0x18,0xeb,0x0c,0x1e,0xe1,0xfc,0x0e,0xf1,0xf7,0xdd,
0x0c,0xe1,0xd6,0xff,0xed,0xd9,0xf0,0xe7,0xf0,0xb1,0x02,0xe5,
0xfd,0xe0,0xf6,0xe5,0xb3,0x11,0x01,0x11,0xf0,0xff,0xeb,0xfd,
0xdc,0x09,0xfe,0x1e,0x10,0xfb,0x10,0x0d,0xf1,0xf5,0xc5,0xdd,
0x20,0x15,0xe6,0xe5,0x07,0xe4,0x03,0xd3,0x07,0xe5,0xd7,0xb2,
0xdb,0xe7,0x0f,0xf7,0x16,0xf0,0xe4,0x04,0x03,0x0d,0x0e,0x02,
0xf8,0xee,0xe8,0x42,0xec,0x01,0x04,0xf7,0xfc,0x04,0x02,0x15,
0xe1,0x0c,0x52,0x18,0xfa,0xd8,0x06,0x1a,0xe4,0x1d,0x56,0x0f,
0x18,0x04,0xf9,0x00,0xfb,0xf2,0x01,0xf3,0xec,0xeb,0xeb,0x06,
0x11,0x3e,0xf2,0x29,0xf9,0x05,0xd9,0x16,0x0f,0xf8,0xf8,0x17,
0x07,0x1d,0x45,0xfd,0x0a,0xe4,0xd9,0xfc,0xe0,0x36,0x21,0x46,
0xf6,0x19,0xf7,0x0c,0x19,0xff,0x08,0x03,0x05,0x1a,0xf3,0x04,
0xfa,0x07,0x04,0x03,0xf8,0xff,0x2a,0xdc,0x14,0x0c,0x0c,0xdd,
0x2d,0xe6,0x04,0x0a,0xe7,0xe8,0xfa,0x0e,0xdf,0x41,0x57,0x3e,
0x23,0x16,0xc2,0xfb,0x0a,0x03,0x2b,0x07,0x1f,0xf5,0xf5,0xfc,
0xfd,0x05,0x17,0xd7,0x02,0xfe,0x15,0xf9,0x0e,0x07,0xbb,0x11,
0xde,0x13,0xe1,0x1a,0x0e,0x22,0x22,0x20,0xf5,0x0f,0x30,0x1c,
0xe7,0x2c,0x03,0x1f,0xe3,0x17,0xf7,0x16,0x1a,0xfb,0xf6,0x0f,
0xfa,0x1a,0x14,0x0c,0x11,0xeb,0xf0,0xf8,0x1e,0xfb,0x18,0x08,
0xfd,0x1e,0x1a,0x09,0x0e,0xe0,0xcb,0x08,0xe8,0x57,0x30,0x0d,
0x07,0x09,0xc1,0xd8,0x10,0x0c,0x1d,0x02,0x4c,0xf0,0xfd,0x01,
0x18,0x16,0xe0,0x22,0xfc,0x17,0xfe,0xf7,0xf7,0xf9,0x23,0xee,
0xf7,0x0e,0x34,0x04,0xff,0xdc,0x12,0xf9,0xf3,0xfe,0xfd,0x4a,
0xfb,0xff,0x1b,0x16,0x17,0x07,0x0e,0x0b,0x39,0x15,0x03,0x0c,
0xe0,0xe2,0xf7,0xe8,0xff,0xfa,0x1a,0xe5,0x0c,0xf8,0x0b,0x1f,
0xcb,0x08,0xf5,0x04,0x07,0x36,0x1b,0xef,0xe2,0x03,0x28,0xed,
0x27,0x1b,0xcf,0xe1,0xdd,0xf2,0xfa,0x29,0xdf,0xf5,0xf4,0xf6,
0xf6,0xf1,0x16,0xfa,0x02,0x00,0x1b,0xef,0x1d,0xf7,0xee,0x1c,
0x35,0x12,0xe8,0xea,0x07,0xc0,0x27,0xe9,0x1b,0xd8,0xc2,0xaf,
0xfc,0xf7,0x03,0xf7,0x27,0x0f,0xeb,0xd1,0xd7,0xe1,0x01,0x15,
0xfa,0xea,0xf5,0x14,0x0a,0xfe,0x01,0xf0,0xe4,0xfa,0xf6,0x01,
0xf9,0x01,0x09,0x07,0x0d,0x0b,0xf2,0x01,0xec,0xde,0x97,0xa9,
0xef,0xe7,0xf6,0x17,0xeb,0x03,0x03,0x05,0xf3,0xf2,0xe4,0xfa,
0xf3,0x1c,0x17,0x3d,0xd4,0xe8,0x13,0xff,0xf8,0x0a,0xdb,0x0e,
0xf0,0x12,0x0e,0x0b,0xf1,0x07,0x1d,0xd8,0x20,0xe5,0xc4,0xcc,
0x06,0x12,0x05,0xdc,0x14,0x0a,0x11,0xe6,0x0d,0xf2,0x08,0xfb,
0xeb,0xfb,0x01,0xfa,0xf6,0xf9,0x02,0xfa,0x16,0x00,0xff,0xf6,
0x03,0xd6,0x25,0x12,0x02,0xd3,0x29,0x08,0xe5,0xe8,0xed,0x4d,
0x21,0xf9,0xfd,0xd9,0xfe,0xf3,0xf5,0xfb,0xdc,0xfc,0x11,0xff,
0xef,0x02,0x0c,0xfc,0x00,0x01,0x18,0x0c,0x17,0x1f,0xe4,0xf7,
0xfb,0xf8,0x13,0xee,0xfc,0xeb,0xf4,0xef,0xec,0x1a,0x54,0x35,
0x2c,0x45,0x9a,0x01,0x0f,0xfb,0x12,0x08,0xd0,0xe9,0xfd,0xff,
0xfa,0xeb,0x30,0x03,0x07,0xfd,0xff,0x0b,0x14,0x07,0xd6,0xda,
0x19,0xf2,0x2a,0x0c,0x06,0xd8,0x20,0x2f,0xe5,0x2b,0x09,0x51,
0x25,0x05,0x16,0x38,0x01,0xf5,0x1a,0x15,0xf8,0xe8,0xed,0xfd,
0xf4,0x1b,0x05,0x00,0x02,0xe7,0x26,0xe3,0xe8,0xf0,0x2e,0x00,
0x1f,0xf3,0xbe,0x25,0xf0,0xfc,0xcb,0x03,0x37,0x5d,0x30,0xef,
0x07,0xf7,0xc0,0x25,0xf3,0x30,0x02,0xf1,0xd2,0x26,0x20,0xf3,
0x05,0xdc,0xbb,0x1e,0x0a,0x1e,0xcc,0x0d,0x17,0xe9,0xe5,0xf7,
0xff,0xec,0xe5,0xf3,0x04,0xf4,0xe2,0xf2,0xee,0xa9,0x37,0x1b,
0xe1,0x08,0x24,0x22,0x2b,0xed,0xf4,0xf1,0x13,0x0b,0xf8,0xf1,
0x03,0xe2,0x1c,0xf5,0xfc,0xe5,0x1b,0xfb,0x08,0x08,0xed,0xfa,
0xe5,0x14,0xf8,0xfd,0xf3,0x12,0x2b,0xf7,0xf0,0xf3,0x21,0x34,
0x1d,0x0e,0xe8,0x2e,0x41,0x14,0x15,0xfc,0xde,0x03,0x02,0xf6,
0xee,0x0e,0xf5,0x07,0x05,0x00,0xfd,0x0f,0x03,0x03,0x02,0xed,
0xeb,0xe2,0xf5,0xfb,0xeb,0xee,0xd0,0xda,0x25,0xd7,0x1d,0xe8,
0xd0,0x03,0x14,0xfa,0xe4,0xf1,0xe7,0xf7,0x0b,0xff,0xf8,0x08,
0x03,0x08,0x22,0x02,0xfa,0xfa,0xec,0xec,0x1a,0xf0,0x13,0x08,
0xf8,0x19,0x2d,0x16,0x0c,0x19,0xd7,0x0c,0xe1,0x44,0x3a,0x2c,
0xf7,0xf4,0xf2,0x00,0x02,0xed,0xea,0xf9,0x24,0x06,0xf4,0x0c,
0xf0,0x02,0x00,0x13,0x02,0xf4,0xf2,0xef,0xf9,0xec,0x26,0x1f,
0x0e,0x19,0x31,0x12,0xf5,0x06,0xc0,0xf4,0xd5,0x15,0x4b,0x21,
0x0d,0x0f,0x01,0xc3,0xdc,0xdf,0x01,0x11,0xcf,0xf1,0x0c,0xfb,
0x0a,0x22,0xf5,0xce,0xfa,0xe7,0x37,0x03,0x23,0x08,0xf8,0xdf,
0x09,0x1b,0x03,0x03,0x1a,0xf4,0x10,0xc4,0x1b,0xae,0x26,0xf6,
0x03,0xe3,0x00,0xd8,0xe2,0x14,0x17,0xf1,0xdf,0xf3,0x0c,0x01,
0x02,0x02,0xe5,0xf5,0x06,0x24,0x0a,0xfb,0x1e,0xff,0x20,0x0d,
0x0c,0xdb,0xf3,0x03,0xfd,0xe4,0xf8,0x1c,0x03,0xca,0xe8,0x02,
0xf0,0x04,0xf2,0x2d,0x16,0x07,0xf6,0xfb,0xfc,0x06,0xfd,0xf7,
0x12,0xfb,0x1b,0x15,0xed,0xef,0xfd,0xfb,0x08,0xff,0xf9,0x15,
0x04,0x08,0x13,0xf6,0xfb,0x0c,0x0b,0xe4,0x16,0xd1,0xd9,0xf0,
0x07,0xdb,0xff,0xcb,0xca,0x05,0xee,0xf4,0x01,0xeb,0xf8,0x00,
0xe6,0xec,0xed,0x01,0xf8,0x03,0xf1,0xff,0x01,0x06,0xf5,0xde,
0x23,0xf8,0xc1,0xf4,0x04,0xd8,0x04,0x0a,0xfe,0xfd,0x2f,0xef,
0xed,0x09,0xf3,0xfd,0xfb,0x0d,0xf4,0xee,0xf7,0x15,0x10,0xff,
0x16,0xf0,0xe1,0x00,0xfe,0x09,0xee,0xec,0x13,0xfd,0xec,0x06,
0x12,0xf4,0x03,0x03,0x0f,0x03,0xda,0x05,0x15,0xa4,0xd8,0xf2,
0xda,0xe0,0xde,0x0d,0x00,0xe8,0x07,0xf2,0xb3,0x16,0xf7,0xfd,
0x33,0xf3,0xff,0x03,0x09,0xfe,0x02,0xe5,0x06,0x0b,0xef,0x04,
0x10,0x02,0x0d,0xfc,0x0b,0x12,0xf1,0xb9,0x20,0x94,0x2a,0x3f,
0x03,0xc7,0xf2,0xa4,0x1d,0x1f,0xf3,0xcc,0xea,0xe9,0xf0,0xff,
0x1a,0xf5,0x10,0x1e,0x15,0xfb,0xf3,0xf7,0xfd,0x0e,0xda,0xd5,
0xe3,0xfb,0xf2,0x0e,0x16,0xec,0xc5,0xbc,0x0a,0xd1,0xf1,0xda,
0x08,0xe3,0xf9,0xfc,0xfa,0xf7,0x20,0x00,0x3f,0xea,0xed,0x16,
0x17,0xef,0x28,0xd7,0xed,0x09,0xf1,0xfd,0xf2,0x16,0x12,0x08,
0xf3,0xf6,0xdc,0x14,0x32,0xfd,0x04,0x0e,0xf4,0x34,0x07,0x21,
0x04,0xe0,0x27,0xea,0x1c,0x1d,0x29,0xf3,0xdf,0xf5,0xdf,0xf5,
0x0f,0x18,0x06,0xdc,0x0d,0xdf,0x0a,0x16,0x0a,0x07,0xd2,0x18,
0xf3,0x22,0xdf,0x16,0xe9,0x31,0x14,0x27,0x17,0x02,0x1d,0x3f,
0xff,0x1d,0x01,0x2c,0x2b,0xdd,0x11,0x0b,0xf3,0x1d,0xea,0x15,
0xe6,0xe8,0x06,0xf5,0xf2,0x14,0x18,0xe8,0xf1,0x18,0x16,0x1d,
0x14,0xf6,0xd6,0xfd,0x00,0xe5,0xe9,0x25,0xf4,0x74,0x3d,0x32,
0x1e,0x0f,0xe2,0xf5,0xd6,0x0d,0x01,0x07,0xe4,0x13,0x21,0x15,
0x0d,0x10,0xd0,0xdc,0x0f,0x01,0x12,0xf0,0x35,0x06,0xd5,0x03,
0xf5,0xe5,0xfa,0x02,0x09,0xe2,0xf0,0xff,0xe9,0xe4,0xd1,0xe9,
0xed,0xc3,0x0d,0x28,0xe1,0x12,0x05,0x00,0xe9,0x0a,0xed,0xe8,
0x17,0xbc,0xf9,0xf9,0x19,0xfc,0xf3,0xff,0x22,0xe6,0x0c,0xe3,
0x01,0xf8,0xf1,0xfa,0x04,0xdd,0xf8,0x00,0x10,0xc7,0xdf,0xbf,
0x1b,0xe9,0x25,0x07,0x22,0x0c,0x02,0xf2,0xec,0x22,0x1a,0xe4,
0x14,0x28,0x06,0xf2,0xf8,0xff,0x10,0x26,0x19,0x0d,0x01,0xcc,
0xc5,0x14,0x04,0x0c,0xf1,0x28,0x08,0xf0,0x28,0x03,0x22,0xee,
0xfa,0x00,0x32,0xf5,0x19,0x02,0x03,0xef,0xdc,0xeb,0xff,0x0a,
0x2b,0xf3,0x08,0x1e,0x02,0x22,0xfe,0xeb,0x00,0xf6,0xe2,0x02,
0x22,0xe3,0xf4,0xfe,0x06,0xf7,0xe5,0xea,0xde,0xcb,0xb6,0xbb,
0xe6,0xdf,0xef,0xde,0xe3,0x1e,0x06,0xe1,0xe8,0xf3,0x07,0xfe,
0x0c,0x05,0xec,0x31,0x08,0xf7,0xfe,0xfa,0x17,0xfc,0x15,0xdb,
0xfc,0xf8,0xc3,0x03,0xf7,0xe8,0x32,0xf0,0x18,0x00,0x3a,0xee,
0xf6,0xf4,0x32,0x18,0x15,0x18,0xf9,0xf1,0xfe,0x16,0x10,0xed,
0xfd,0xf6,0xf2,0x11,0x0c,0x08,0x08,0x1a,0x15,0x0e,0xfd,0xc6,
0xd9,0x0a,0xde,0xf3,0x02,0x08,0xf6,0x0e,0xee,0x22,0xfa,0xc3,
0xfd,0x1a,0x12,0xdf,0xf1,0x19,0xfa,0xed,0xe7,0xf7,0x03,0x01,
0x24,0xf5,0x0a,0x3c,0x0e,0x03,0x16,0xfb,0xea,0x0f,0xf9,0xea,
0xfe,0x07,0xd9,0x11,0x06,0x1c,0x16,0xdc,0x14,0xf9,0xda,0xba,
0xfd,0x30,0x08,0xea,0xfc,0x02,0xe9,0xf2,0xc4,0x12,0x1b,0x02,
0x1b,0x06,0x02,0x0c,0xf7,0xf2,0xec,0x11,0xf9,0x0f,0x2c,0xdf,
0xfa,0xea,0xf1,0x1d,0xf3,0x16,0x0f,0xf8,0x0a,0xde,0xdb,0xc8,
0xf9,0x2e,0x14,0xf9,0x2e,0xf6,0xff,0xff,0x04,0x00,0x00,0x00,
0x00,0x01,0x00,0x00,0x65,0xf0,0xff,0xff,0xe7,0xd4,0xff,0xff,
0x5d,0xda,0xff,0xff,0xc3,0xd8,0xff,0xff,0x41,0x02,0x00,0x00,
0x72,0xf9,0xff,0xff,0xd8,0xdf,0xff,0xff,0xb6,0xe2,0xff,0xff,
0x86,0xc5,0xff,0xff,0x8d,0xc9,0xff,0xff,0x4a,0xd0,0xff,0xff,
0xe6,0xb2,0xff,0xff,0x69,0xc8,0xff,0xff,0x8f,0xda,0xff,0xff,
0x5c,0xcc,0xff,0xff,0x5e,0x19,0x00,0x00,0xb9,0x0f,0x00,0x00,
0xa2,0xc8,0xff,0xff,0x33,0xeb,0xff,0xff,0x7c,0xc3,0xff,0xff,
0x65,0xd6,0xff,0xff,0xec,0xcb,0xff,0xff,0x53,0xb1,0xff,0xff,
0x40,0xb8,0xff,0xff,0x89,0xbd,0xff,0xff,0xc5,0xbe,0xff,0xff,
0x30,0xf3,0xff,0xff,0xa3,0xc4,0xff,0xff,0x44,0xc8,0xff,0xff,
0x01,0xa2,0xff,0xff,0x19,0xbc,0xff,0xff,0xfe,0xcf,0xff,0xff,
0x33,0xf8,0xff,0xff,0x27,0xdb,0xff,0xff,0x36,0xe1,0xff,0xff,
0x03,0xdf,0xff,0xff,0xc1,0xce,0xff,0xff,0x6a,0xdd,0xff,0xff,
0xb4,0xbd,0xff,0xff,0x95,0xcd,0xff,0xff,0xbc,0xb4,0xff,0xff,
0x73,0xd3,0xff,0xff,0xd8,0xc6,0xff,0xff,0x83,0xe0,0xff,0xff,
0x65,0xd9,0xff,0xff,0x16,0xe3,0xff,0xff,0x70,0xa4,0xff,0xff,
0xfa,0xde,0xff,0xff,0xa5,0xd2,0xff,0xff,0x3e,0xec,0xff,0xff,
0x0c,0x02,0x00,0x00,0x00,0x82,0xff,0xff,0x16,0xb4,0xff,0xff,
0x13,0xc5,0xff,0xff,0x28,0xc2,0xff,0xff,0x19,0xa4,0xff,0xff,
0x48,0xe6,0xff,0xff,0xc7,0xec,0xff,0xff,0xa5,0xad,0xff,0xff,
0xfe,0xd8,0xff,0xff,0xb9,0x91,0xff,0xff,0xce,0xbc,0xff,0xff,
0x22,0xaa,0xff,0xff,0x42,0xc4,0xff,0xff,0x3a,0xf7,0xff,0xff,
0x04,0x00,0x00,0x00,0x00,0x08,0x00,0x00,0xff,0x02,0xe0,0x04,
0x0c,0x0a,0xfd,0xe3,0x12,0xfe,0xcd,0x2c,0x06,0xe7,0x0a,0xff,
0x23,0xf3,0xe2,0xe3,0xff,0xde,0xff,0xdc,0x06,0xc2,0xff,0xfc,
0xf7,0x23,0x03,0x0e,0x0f,0x0f,0xe9,0x01,0x00,0x0a,0x4c,0x27,
0xec,0xd0,0x22,0xcc,0x03,0x02,0xde,0xc3,0x05,0x12,0xf2,0xad,
0xde,0x42,0xe8,0xfa,0x05,0x06,0xbf,0xf4,0x98,0xd3,0xe0,0xd1,
0x03,0x05,0xdc,0x06,0xf8,0xf6,0xf8,0xe3,0x24,0x29,0xda,0x33,
0x28,0xe9,0xf2,0x05,0x0a,0xe5,0xed,0xeb,0xf1,0xf7,0x06,0x3b,
0x25,0xed,0x12,0x1a,0x17,0x32,0x16,0x06,0x01,0x06,0xef,0xd9,
0xe7,0x01,0x5d,0x1d,0x16,0xf0,0x20,0xde,0x0f,0x12,0xed,0xe5,
0xe5,0x37,0xf2,0xdd,0x14,0x1e,0x01,0x38,0x11,0xfc,0xd2,0xe7,
0xba,0x12,0x0a,0xec,0xf0,0xe6,0x35,0xec,0xfd,0x07,0xfa,0x22,
0xeb,0xee,0x1d,0xf6,0x11,0xfe,0xf4,0xfb,0xed,0xf9,0x0d,0xeb,
0x1a,0x11,0x02,0xd2,0xe3,0x11,0x12,0xc7,0xea,0xcc,0xe8,0xf7,
0xf3,0x0e,0x13,0x0c,0x08,0x09,0xee,0xf0,0xd6,0x05,0xf6,0xed,
0xea,0xe3,0x19,0x09,0x2c,0x09,0x06,0x5a,0x1f,0xdc,0xd7,0xe3,
0xf2,0x01,0x3a,0x07,0x2a,0xee,0x0a,0xf8,0x00,0xdb,0x01,0xf2,
0xf3,0xe1,0xe7,0x09,0xf1,0x02,0x25,0xdd,0xed,0x07,0x09,0xfb,
0x09,0x2a,0xf9,0x37,0x0e,0x10,0x14,0x1e,0xf7,0x36,0x0a,0x04,
0xef,0xe0,0xe0,0xe3,0xeb,0xf1,0x04,0x0f,0x1a,0xe8,0xfe,0xd7,
0xd8,0x17,0xe1,0x14,0xfc,0xfd,0x2b,0x01,0x01,0x08,0xf6,0x57,
0x22,0x0b,0xd1,0xd4,0x02,0x0b,0x16,0x15,0x43,0xff,0x23,0x2a,
0xfd,0xeb,0xfa,0xd6,0xf5,0xe8,0xee,0xed,0xf1,0xe0,0x09,0x07,
0xe0,0x18,0xdd,0xf2,0xf7,0x0a,0x0c,0x17,0xf6,0x04,0x27,0x01,
0xf6,0x3f,0x0e,0xc7,0xfc,0xdc,0xe7,0x17,0xed,0xdc,0x02,0x1d,
0xf5,0xfd,0xe6,0xf9,0xe8,0xf9,0xda,0x16,0x11,0x06,0x29,0x00,
0xfb,0xff,0x00,0x30,0x3c,0xf2,0xdf,0xca,0xff,0x01,0xf9,0x23,
0x27,0x07,0xff,0x0a,0x05,0xe5,0xeb,0xf8,0xf4,0xf4,0x0e,0x05,
0x0f,0xf4,0x1e,0x06,0x09,0x29,0xe0,0x09,0xf1,0xe7,0x04,0x27,
0x18,0xe4,0x06,0xf9,0xfe,0xfa,0x19,0xf3,0xf5,0xf3,0x0f,0xef,
0xf1,0x0c,0xfb,0x20,0x22,0xfd,0xeb,0xf5,0xf4,0xfd,0xe2,0xe2,
0xe6,0xdf,0xec,0xe3,0x19,0xdd,0x02,0x3b,0x08,0xff,0xf1,0x02,
0x0f,0x10,0x0c,0xfb,0xe7,0x21,0x15,0xfe,0xe5,0xe8,0xf7,0xdd,
0xfd,0xf7,0xe3,0xed,0xde,0xf3,0x03,0xdf,0xc3,0x15,0xc4,0x0d,
0xf4,0x39,0xf3,0x5a,0xfd,0x17,0x1a,0x0b,0xfa,0x32,0xf1,0xf8,
0xec,0xd1,0xd1,0xeb,0x01,0xde,0x05,0x1a,0x0e,0xef,0xd8,0xdf,
0xb2,0x03,0x03,0x21,0xf3,0xdd,0x45,0x21,0xfd,0x23,0xfc,0x59,
0x0a,0xf0,0xc9,0xbd,0x11,0xfc,0xed,0x15,0xf9,0x0b,0xf7,0x28,
0x0a,0xc7,0x12,0xf6,0xf7,0xec,0xed,0xe7,0x05,0xee,0x06,0xf0,
0xd4,0xfe,0xdb,0xfc,0x0c,0x06,0x0a,0x1d,0x02,0x1d,0x26,0x22,
0xe7,0x40,0x06,0xfb,0xda,0xe7,0xec,0xf5,0xed,0xe9,0xf8,0x10,
0x0d,0xf3,0xfb,0xde,0xe1,0x15,0xdf,0x04,0x0e,0x08,0x28,0x0b,
0xfc,0x05,0x07,0x65,0x3e,0x13,0xda,0xed,0xf4,0x15,0x19,0x12,
0x29,0x17,0xf0,0x05,0x28,0x12,0x0c,0xee,0xfb,0x05,0x28,0xf1,
0x1d,0xfd,0x07,0x02,0xf4,0xe0,0x1f,0xf2,0x04,0xe5,0xe4,0xe8,
0xfd,0xe1,0xe7,0xc9,0x19,0xef,0xdd,0xfa,0x10,0x25,0xd4,0x0a,
0xf8,0x16,0xef,0xfb,0xec,0xf3,0xfb,0x09,0x10,0xce,0xf8,0xdd,
0x02,0x28,0xf2,0x16,0xe8,0xe0,0x03,0xd1,0xc6,0xf4,0xf6,0xfd,
0xdb,0xec,0xc7,0x03,0xd2,0xf8,0xef,0x1e,0x1c,0x01,0x09,0x08,
0x18,0xef,0x1f,0x0b,0x4a,0xe6,0x15,0xf2,0xef,0xd3,0x1b,0xf9,
0xef,0xe7,0xff,0x15,0xe2,0x01,0x08,0xd6,0x25,0xec,0x03,0xf3,
0x05,0x3a,0xf0,0xf5,0x09,0xe1,0x03,0xf8,0xe3,0x0e,0x16,0x2d,
0x1e,0xd4,0xfc,0xf1,0x18,0xf2,0x15,0x1c,0x09,0x11,0x05,0xca,
0xd8,0x4a,0x34,0x2a,0xef,0xf0,0xe5,0xfb,0xf5,0xf6,0xe4,0xf0,
0xf6,0x00,0xd7,0x05,0x02,0xf3,0xef,0xe6,0xf6,0x14,0xff,0x2a,
0xf8,0xcd,0x0c,0x04,0x1b,0xde,0x00,0xee,0x09,0xfa,0xed,0xd7,
0x1c,0xe5,0x02,0x11,0xfa,0x0f,0x06,0xf4,0x23,0x02,0xeb,0xea,
0xed,0x0c,0x2e,0x0b,0x17,0xc2,0x12,0xe9,0xf9,0xf8,0x0a,0xf9,
0xf8,0x33,0xec,0xce,0xc7,0x50,0x22,0x0f,0xf9,0xe9,0xcf,0xf0,
0xbc,0x0c,0xe1,0xef,0xf8,0xe2,0x0c,0xf0,0xff,0xf8,0xfa,0xf4,
0xf0,0xe3,0x33,0xd8,0xdf,0x03,0xef,0xf2,0xe4,0x1d,0x0f,0x12,
0x08,0x07,0x19,0x09,0xfe,0x3d,0x12,0xf6,0xe8,0xe6,0xda,0xf7,
0xe2,0xdd,0x0b,0x04,0xff,0xee,0xe5,0xdb,0xc8,0xff,0xe7,0xff,
0xe1,0xf9,0x3b,0x0a,0x29,0x06,0x05,0x72,0x11,0xeb,0xd4,0xda,
0xfd,0xf8,0x13,0x14,0x16,0xfc,0x20,0xfc,0xf9,0x09,0xe6,0xf3,
0xfe,0x16,0x09,0x16,0x07,0x0c,0xd4,0x17,0x15,0xe2,0x0f,0xfb,
0xf9,0xee,0xfd,0xe4,0xe7,0x01,0xed,0xac,0x0f,0xcc,0xe8,0xf6,
0x1f,0x10,0x27,0x02,0x09,0x45,0xe3,0xf1,0xfd,0xf3,0x20,0xf9,
0xf6,0xe8,0xfe,0x1c,0x1e,0x08,0xd5,0xe0,0xe9,0xe4,0xeb,0xd2,
0xb8,0x19,0xde,0x0e,0xd1,0xeb,0x15,0xe6,0xf9,0xea,0xdb,0xf3,
0xf1,0x00,0x1f,0xfd,0xf6,0x0d,0xfd,0x0b,0xe0,0xf0,0xf7,0xe7,
0xf6,0xf6,0xe3,0xfc,0xf2,0x06,0x0f,0x16,0x0e,0x1b,0x14,0x06,
0x12,0x3d,0x12,0xc5,0xe6,0xf1,0xff,0xef,0xfc,0xe4,0x2c,0x13,
0x0a,0x11,0xed,0xf0,0xea,0xed,0xf5,0x07,0xf1,0xe4,0x23,0x28,
0xfe,0x21,0xf7,0x4f,0x0b,0xe8,0xdb,0xbb,0x01,0xf7,0xfc,0x0e,
0x2e,0xea,0xf0,0xec,0xf2,0xef,0xf4,0x18,0xf2,0x0e,0xe8,0xda,
0xe5,0x3e,0xdd,0x30,0x32,0xd4,0xe9,0x0b,0x11,0xdf,0xe6,0xeb,
0xeb,0x00,0xec,0xdb,0x2a,0xcd,0xf8,0x1e,0x18,0x20,0x44,0x1c,
0x0c,0x1b,0xfb,0xf9,0xe5,0x0b,0x3d,0xdb,0x3b,0xce,0xf5,0x12,
0xf9,0x0c,0xea,0x1d,0xf5,0x22,0xe6,0xbe,0xcc,0x33,0x2b,0x22,
0xf9,0xd9,0xd7,0xdb,0xce,0x1a,0xe0,0xfb,0xf9,0x0b,0xf2,0x19,
0x0d,0x07,0x44,0x01,0x15,0xea,0x09,0xff,0xdb,0xe1,0x1d,0xf4,
0x14,0xf5,0xea,0xe0,0xe9,0xe8,0x00,0xca,0x36,0xe3,0xee,0xf5,
0xea,0x07,0x08,0xef,0x15,0x3a,0xfa,0xdc,0xe1,0x04,0x04,0x14,
0xfa,0xbd,0x25,0xf7,0x0b,0xf7,0xfc,0x12,0x00,0xdc,0xe8,0xb1,
0xbd,0x41,0x2c,0x04,0xde,0xf0,0xd3,0xf2,0x05,0xdd,0xcb,0x18,
0x05,0xe0,0xff,0xf6,0xed,0xec,0x09,0xd9,0x01,0xe4,0x26,0xf6,
0xdc,0x04,0xf7,0x02,0xe4,0xf5,0xfb,0xe9,0x0a,0x20,0x2f,0x10,
0xef,0x41,0x0c,0xd8,0xe2,0xd9,0xfa,0xe7,0xec,0xf6,0x04,0x16,
0x18,0xf7,0xe3,0xe6,0xe2,0xf4,0xbd,0x17,0xd0,0xdc,0x29,0xf0,
0x38,0x01,0x06,0x62,0x18,0xee,0xf1,0xf2,0x1c,0xe9,0x3b,0x1a,
0xf4,0xfe,0x05,0x0c,0x0a,0xc6,0x32,0xf9,0x05,0x11,0x08,0x2e,
0xe9,0x04,0x1d,0xdd,0xf4,0x04,0xd7,0xe8,0x1d,0x22,0x2e,0x17,
0xf2,0x31,0x59,0x19,0x10,0x11,0x00,0x03,0xfd,0xe6,0xd7,0x04,
0x0a,0xfe,0xf5,0x01,0x14,0x0a,0x25,0x01,0x0b,0x2f,0xd4,0xf3,
0xf9,0xdf,0x0e,0x2f,0x01,0x26,0x04,0x5b,0x0d,0xfe,0xd5,0xc8,
0xe6,0x21,0x1d,0xf7,0x36,0x0d,0x1c,0x29,0xf8,0x00,0xf9,0xec,
0xf8,0xf9,0xf9,0x10,0xf7,0x01,0xfc,0x00,0xf6,0x17,0xe3,0x1a,
0xfa,0xfb,0xfb,0xf6,0x0f,0x40,0x06,0x0c,0x01,0x1f,0x1b,0xde,
0xeb,0xe0,0x0d,0xeb,0xe7,0x11,0x12,0x33,0x24,0xfd,0xe3,0xe3,
0xe2,0xf0,0xde,0x04,0x09,0xf0,0x34,0xde,0x05,0x08,0xfb,0x57,
0x33,0x20,0xf0,0xe7,0xf9,0x11,0x39,0x32,0xe7,0x39,0x1d,0x18,
0xfb,0xd0,0x1e,0xfd,0xf1,0x09,0xf3,0x13,0xe3,0x00,0x25,0xce,
0xd4,0x1e,0xfb,0x0e,0xf6,0x0d,0x1b,0x32,0x18,0x2c,0x2b,0x2c,
0xe7,0x33,0xfb,0xe8,0xe6,0xbd,0xf2,0xf2,0xed,0x16,0xf1,0x0a,
0x28,0xf2,0xfb,0xf8,0xcf,0x0b,0xbb,0xf1,0x06,0xe9,0x0d,0x27,
0x11,0x1a,0x04,0x7c,0x12,0xf0,0xf7,0xb4,0x14,0xfe,0xf4,0x09,
0x15,0x36,0x43,0x15,0x00,0xe7,0x10,0xf8,0x07,0xfc,0x04,0xf5,
0xfc,0xe6,0x08,0xf0,0xee,0x0d,0xdf,0xf2,0xfe,0xf8,0x02,0x38,
0xfe,0x1b,0x16,0x1c,0xee,0x42,0x02,0x09,0xe7,0xeb,0x13,0xef,
0x03,0xf4,0x07,0x27,0x0f,0x08,0xea,0xf6,0xee,0x02,0xe8,0x04,
0xdd,0xe2,0x1e,0x3b,0x23,0xfb,0x0d,0x47,0x23,0xeb,0xf4,0xe3,
0x07,0x01,0x18,0x19,0xf8,0xfd,0x0f,0x12,0x14,0xe6,0x24,0xf1,
0xf9,0x06,0x1d,0xec,0xfa,0x1f,0xf7,0xf0,0xd8,0x08,0xea,0x05,
0x00,0x0d,0x0c,0x07,0xfa,0x24,0x24,0xf8,0xfa,0x50,0x04,0xdd,
0xe1,0xd2,0xe8,0xea,0x11,0xf2,0x1e,0x2a,0x31,0x06,0xed,0xf2,
0xfb,0xf2,0xe7,0xfb,0xd2,0xd3,0x23,0x19,0x28,0x22,0x11,0x57,
0x18,0xf5,0xe8,0xd1,0x11,0x0a,0x09,0x0d,0x2a,0x18,0xe2,0x00,
0x15,0x08,0x0b,0x1c,0x04,0x11,0x31,0xff,0x23,0x0c,0x14,0xf7,
0x10,0xe7,0x21,0xfa,0x0b,0xf3,0xeb,0x11,0x01,0xee,0xe2,0xbc,
0x02,0xd7,0xe2,0xe2,0x16,0x31,0x11,0x0b,0xfc,0x35,0xe7,0x08,
0xff,0xf2,0x1c,0xf8,0x2e,0xe0,0xf9,0x06,0x15,0x16,0xd9,0xf6,
0x0d,0xe2,0x01,0xd1,0xc1,0x0f,0xe2,0x2e,0xec,0xf7,0xb6,0xf6,
0xf6,0xbe,0xe7,0x12,0x1d,0x19,0xf3,0xf8,0xf0,0x16,0xf0,0xeb,
0x1c,0x08,0xe4,0x13,0x1d,0xef,0xd9,0xf4,0xe2,0xcf,0xeb,0x11,
0xee,0xf2,0xf8,0xd1,0x17,0xcc,0xf7,0x0b,0x29,0x18,0x3f,0x25,
0xec,0x01,0xef,0xf4,0xe5,0xf1,0x2b,0x00,0x10,0xd8,0xf8,0xe4,
0x0d,0xf3,0xdc,0xf6,0xe9,0xff,0xeb,0xc0,0xd9,0x0d,0xf2,0x0f,
0xf1,0xe6,0xd2,0xec,0xd7,0xd8,0xcb,0xfa,0xf3,0xee,0x11,0xf4,
0xf5,0xff,0x06,0xf8,0xe7,0x01,0x18,0xf3,0xdd,0x32,0xc9,0x10,
0x03,0xd9,0x16,0x0e,0x03,0x14,0x1b,0x13,0xf8,0x2a,0x17,0xd8,
0x09,0xe5,0xe1,0xec,0xf8,0xdb,0xef,0x32,0x1f,0xfa,0xe2,0xe9,
0xe9,0x06,0xff,0xff,0xf6,0xda,0xf7,0x0c,0x1a,0x0b,0xfd,0x13,
0x1c,0xfb,0xe4,0xcf,0xed,0xfa,0xd3,0x28,0x2a,0x35,0x18,0xf6,
0xfa,0x04,0xec,0x10,0x07,0x0e,0x0b,0xcc,0xe6,0x40,0xf4,0x04,
0x06,0xea,0x00,0x02,0xff,0xd2,0xf8,0x05,0xea,0xdd,0xe8,0xc0,
0x28,0xc9,0xf1,0x00,0x1a,0x3c,0xf1,0x32,0x1a,0x27,0xe7,0xe3,
0xd6,0x2c,0x21,0x13,0x01,0xe0,0xda,0xf9,0x0b,0xfd,0xe4,0x00,
0x04,0x18,0xe5,0xe4,0xd8,0x09,0xd9,0x01,0xea,0xef,0xbe,0xe8,
0xc7,0xd1,0xd1,0xe0,0xed,0x18,0xd7,0xf9,0xff,0x10,0x0d,0xf4,
0xe8,0x2f,0xe0,0x0a,0x0c,0xe3,0x11,0x09,0x20,0xd3,0xf4,0xe3,
0x05,0xf4,0xf7,0xcc,0x27,0xd2,0x04,0x09,0x18,0x19,0x02,0x12,
0x13,0x12,0xf1,0xed,0xf9,0x11,0x21,0x0d,0xf0,0xd6,0x0d,0xd9,
0xea,0x08,0x01,0xfc,0xf0,0x0e,0xe3,0xd5,0xd4,0xe8,0xf3,0x0d,
0x10,0xf9,0xc1,0xdf,0x95,0xeb,0x03,0xdd,0xf3,0xe2,0x08,0xee,
0x07,0x0f,0xef,0x0c,0xf6,0xe4,0x0c,0xee,0xd9,0xf6,0xbf,0xf1,
0xfb,0x31,0xfe,0x2f,0x05,0xf9,0x15,0x02,0xed,0x2f,0x09,0x06,
0xe6,0xde,0xe5,0x06,0xf1,0xdd,0x09,0x12,0xfc,0x04,0xf5,0xe9,
0xd5,0x14,0xeb,0xff,0x09,0x0c,0x24,0x31,0xfe,0x01,0x02,0x43,
0x04,0xef,0xca,0xd1,0x02,0x02,0xfa,0x0a,0xf0,0x0c,0xd5,0xef,
0xe2,0xed,0x19,0xf2,0xf5,0x14,0xbf,0xea,0xe5,0xfc,0xee,0xfa,
0xeb,0x06,0xcf,0xfa,0xf1,0x0d,0xfc,0x26,0x18,0x2f,0x16,0xf3,
0xf9,0x34,0x13,0xe4,0xe2,0xe6,0x12,0xe7,0xf4,0xee,0x1f,0x28,
0x0b,0xfd,0xe8,0xeb,0xd5,0x07,0xec,0x06,0xe2,0xd8,0x28,0x1f,
0xf7,0x17,0x0b,0x7f,0x28,0xdb,0xd1,0xc5,0x0a,0xf2,0xf4,0x1a,
0x1b,0x17,0x1a,0x09,0x14,0xf4,0xd5,0xef,0xf5,0x0e,0x1a,0x08,
0x10,0x03,0x2e,0xe1,0x23,0x25,0x0c,0x03,0xfe,0x20,0xf5,0x1d,
0x3d,0x26,0xe7,0x02,0xec,0x32,0x16,0xf1,0xe3,0xed,0x0c,0xd6,
0xec,0x1f,0x1d,0x08,0x33,0x10,0xd8,0xcc,0xeb,0xe3,0xd3,0xf6,
0xe2,0xf0,0x02,0xed,0x31,0xfe,0x01,0x4e,0x17,0x31,0x09,0xd5,
0xf1,0x2e,0xe1,0xf8,0xff,0xe7,0x0a,0x05,0x18,0xfc,0xe7,0xef,
0x00,0x03,0xff,0x0f,0x15,0x0f,0xd9,0x34,0x16,0xd8,0x09,0xf7,
0xea,0xf2,0xf6,0xe3,0xda,0xe6,0xdb,0xda,0x0c,0xb7,0xfc,0xef,
0xf4,0xff,0x64,0x03,0xf0,0x29,0xe1,0xea,0xe5,0x2b,0x0d,0x1a,
0x23,0xf7,0x0f,0xef,0x0f,0xf0,0xe2,0xf1,0xd4,0xcd,0x01,0x95,
0xd0,0x32,0x46,0x19,0x00,0xf9,0xc9,0xe7,0xad,0xe1,0xd7,0xe8,
0x22,0x00,0xe4,0x00,0xfc,0xf6,0xff,0xd5,0x21,0x29,0xd7,0x23,
0x1d,0xea,0x13,0xfe,0x01,0xe5,0xe8,0x1b,0xf2,0xf4,0xfc,0xe3,
0x28,0xf2,0xf6,0xfd,0xf4,0x3f,0x0a,0x07,0x01,0xef,0xec,0xfa,
0xf1,0x0d,0x11,0xf3,0x44,0xde,0xf0,0xe9,0x18,0x05,0x07,0x09,
0xe8,0x47,0xf4,0xdf,0xd0,0x09,0xde,0x56,0xef,0xf0,0xe1,0xf7,
0xd9,0x1d,0x06,0xf1,0x46,0xff,0xff,0xff,0x04,0x00,0x00,0x00,
0x80,0x00,0x00,0x00,0x91,0x17,0x00,0x00,0x96,0xe6,0xff,0xff,
0x83,0x0a,0x00,0x00,0xf8,0x23,0x00,0x00,0x84,0x0f,0x00,0x00,
0x8c,0xfe,0xff,0xff,0x7a,0x0f,0x00,0x00,0x55,0x21,0x00,0x00,
0x33,0x18,0x00,0x00,0x49,0xfd,0xff,0xff,0xd0,0x02,0x00,0x00,
0x57,0x28,0x00,0x00,0x3e,0x23,0x00,0x00,0xff,0x21,0x00,0x00,
0xe8,0x0f,0x00,0x00,0xbf,0x14,0x00,0x00,0x0f,0x22,0x00,0x00,
0x7f,0xd1,0xff,0xff,0x05,0x02,0x00,0x00,0x22,0x0d,0x00,0x00,
0x00,0x21,0x00,0x00,0x05,0x0e,0x00,0x00,0xf3,0x1d,0x00,0x00,
0xcf,0x25,0x00,0x00,0x3f,0x10,0x00,0x00,0x55,0x11,0x00,0x00,
0xb7,0x0a,0x00,0x00,0xf9,0x0b,0x00,0x00,0x25,0x17,0x00,0x00,
0x7b,0x02,0x00,0x00,0xb5,0x1e,0x00,0x00,0xbf,0xfa,0xff,0xff,
0xd2,0xff,0xff,0xff,0x04,0x00,0x00,0x00,0x20,0x00,0x00,0x00,
0x71,0x74,0xbc,0xcf,0xc2,0xb2,0xa0,0xd2,0x6b,0x5a,0x7f,0xc9,
0x4e,0xcb,0x72,0x68,0xbc,0x96,0xb6,0xba,0xd2,0xb6,0x4e,0x6e,
0xb9,0x64,0x55,0xc8,0xba,0x9d,0x76,0x79,0x00,0x00,0x06,0x00,
0x08,0x00,0x04,0x00,0x06,0x00,0x00,0x00,0x04,0x00,0x00,0x00,
0x04,0x00,0x00,0x00,0x19,0x46,0x00,0x00,0x54,0xf4,0xff,0xff,
0x58,0xf4,0xff,0xff,0x0f,0x00,0x00,0x00,0x4d,0x4c,0x49,0x52,
0x20,0x43,0x6f,0x6e,0x76,0x65,0x72,0x74,0x65,0x64,0x2e,0x00,
0x01,0x00,0x00,0x00,0x14,0x00,0x00,0x00,0x00,0x00,0x0e,0x00,
0x18,0x00,0x14,0x00,0x10,0x00,0x0c,0x00,0x08,0x00,0x04,0x00,
0x0e,0x00,0x00,0x00,0x14,0x00,0x00,0x00,0x1c,0x00,0x00,0x00,
0x64,0x01,0x00,0x00,0x68,0x01,0x00,0x00,0x6c,0x01,0x00,0x00,
0x04,0x00,0x00,0x00,0x6d,0x61,0x69,0x6e,0x00,0x00,0x00,0x00,
0x06,0x00,0x00,0x00,0x2c,0x01,0x00,0x00,0xdc,0x00,0x00,0x00,
0x90,0x00,0x00,0x00,0x58,0x00,0x00,0x00,0x34,0x00,0x00,0x00,
0x04,0x00,0x00,0x00,0xde,0xff,0xff,0xff,0x0c,0x00,0x00,0x00,
0x10,0x00,0x00,0x00,0x03,0x00,0x00,0x00,0x01,0x00,0x00,0x00,
0x0c,0x00,0x00,0x00,0x01,0x00,0x00,0x00,0x0b,0x00,0x00,0x00,
0x00,0x00,0x0a,0x00,0x10,0x00,0x0c,0x00,0x08,0x00,0x04,0x00,
0x0a,0x00,0x00,0x00,0x0c,0x00,0x00,0x00,0x10,0x00,0x00,0x00,
0x02,0x00,0x00,0x00,0x01,0x00,0x00,0x00,0x0b,0x00,0x00,0x00,
0x01,0x00,0x00,0x00,0x0a,0x00,0x00,0x00,0x92,0xff,0xff,0xff,
0x14,0x00,0x00,0x00,0x00,0x00,0x00,0x08,0x10,0x00,0x00,0x00,
0x14,0x00,0x00,0x00,0x01,0x00,0x00,0x00,0x2c,0xf5,0xff,0xff,
0x01,0x00,0x00,0x00,0x0a,0x00,0x00,0x00,0x03,0x00,0x00,0x00,
0x09,0x00,0x00,0x00,0x02,0x00,0x00,0x00,0x01,0x00,0x00,0x00,
0xc6,0xff,0xff,0xff,0x14,0x00,0x00,0x00,0x00,0x00,0x00,0x08,
0x14,0x00,0x00,0x00,0x18,0x00,0x00,0x00,0x01,0x00,0x00,0x00,
0xb6,0xff,0xff,0xff,0x00,0x00,0x00,0x01,0x01,0x00,0x00,0x00,
0x09,0x00,0x00,0x00,0x03,0x00,0x00,0x00,0x08,0x00,0x00,0x00,
0x04,0x00,0x00,0x00,0x03,0x00,0x00,0x00,0x00,0x00,0x0e,0x00,
0x1a,0x00,0x14,0x00,0x10,0x00,0x0c,0x00,0x0b,0x00,0x04,0x00,
0x0e,0x00,0x00,0x00,0x1c,0x00,0x00,0x00,0x00,0x00,0x00,0x08,
0x1c,0x00,0x00,0x00,0x20,0x00,0x00,0x00,0x01,0x00,0x00,0x00,
0x00,0x00,0x06,0x00,0x08,0x00,0x07,0x00,0x06,0x00,0x00,0x00,
0x00,0x00,0x00,0x01,0x01,0x00,0x00,0x00,0x08,0x00,0x00,0x00,
0x03,0x00,0x00,0x00,0x07,0x00,0x00,0x00,0x06,0x00,0x00,0x00,
0x05,0x00,0x00,0x00,0x00,0x00,0x0a,0x00,0x0c,0x00,0x00,0x00,
0x08,0x00,0x04,0x00,0x0a,0x00,0x00,0x00,0x08,0x00,0x00,0x00,
0x0c,0x00,0x00,0x00,0x01,0x00,0x00,0x00,0x07,0x00,0x00,0x00,
0x01,0x00,0x00,0x00,0x00,0x00,0x00,0x00,0x01,0x00,0x00,0x00,
0x0c,0x00,0x00,0x00,0x01,0x00,0x00,0x00,0x00,0x00,0x00,0x00,
0x0d,0x00,0x00,0x00,0xcc,0x09,0x00,0x00,0x1c,0x09,0x00,0x00,
0x0c,0x08,0x00,0x00,0x68,0x07,0x00,0x00,0x5c,0x06,0x00,0x00,
0xb8,0x05,0x00,0x00,0xac,0x04,0x00,0x00,0x38,0x04,0x00,0x00,
0x04,0x03,0x00,0x00,0xe0,0x01,0x00,0x00,0xdc,0x00,0x00,0x00,
0x60,0x00,0x00,0x00,0x04,0x00,0x00,0x00,0x7e,0xf6,0xff,0xff,
0x00,0x00,0x00,0x01,0x14,0x00,0x00,0x00,0x1c,0x00,0x00,0x00,
0x1c,0x00,0x00,0x00,0x0d,0x00,0x00,0x00,0x34,0x00,0x00,0x00,
0x02,0x00,0x00,0x00,0xff,0xff,0xff,0xff,0x01,0x00,0x00,0x00,
0x68,0xf6,0xff,0xff,0x19,0x00,0x00,0x00,0x53,0x74,0x61,0x74,
0x65,0x66,0x75,0x6c,0x50,0x61,0x72,0x74,0x69,0x74,0x69,0x6f,
0x6e,0x65,0x64,0x43,0x61,0x6c,0x6c,0x3a,0x30,0x00,0x00,0x00,
0x02,0x00,0x00,0x00,0x01,0x00,0x00,0x00,0x01,0x00,0x00,0x00,
0x4e,0xfc,0xff,0xff,0x00,0x00,0x00,0x01,0x18,0x00,0x00,0x00,
0x20,0x00,0x00,0x00,0x3c,0x00,0x00,0x00,0x0c,0x00,0x00,0x00,
0x00,0x00,0x00,0x09,0x50,0x00,0x00,0x00,0x02,0x00,0x00,0x00,
0xff,0xff,0xff,0xff,0x01,0x00,0x00,0x00,0x7c,0xf7,0xff,0xff,
0x08,0x00,0x00,0x00,0x10,0x00,0x00,0x00,0x01,0x00,0x00,0x00,
0x80,0xff,0xff,0xff,0xff,0xff,0xff,0xff,0x01,0x00,0x00,0x00,
0x00,0x00,0x80,0x3b,0x1a,0x00,0x00,0x00,0x53,0x74,0x61,0x74,
0x65,0x66,0x75,0x6c,0x50,0x61,0x72,0x74,0x69,0x74,0x69,0x6f,
0x6e,0x65,0x64,0x43,0x61,0x6c,0x6c,0x3a,0x30,0x31,0x00,0x00,
0x02,0x00,0x00,0x00,0x01,0x00,0x00,0x00,0x01,0x00,0x00,0x00,
0xc6,0xfc,0xff,0xff,0x00,0x00,0x00,0x01,0x18,0x00,0x00,0x00,
0x20,0x00,0x00,0x00,0x3c,0x00,0x00,0x00,0x0b,0x00,0x00,0x00,
0x00,0x00,0x00,0x09,0xd8,0x00,0x00,0x00,0x02,0x00,0x00,0x00,
0xff,0xff,0xff,0xff,0x01,0x00,0x00,0x00,0xf4,0xf7,0xff,0xff,
0x08,0x00,0x00,0x00,0x10,0x00,0x00,0x00,0x01,0x00,0x00,0x00,
0x9e,0xff,0xff,0xff,0xff,0xff,0xff,0xff,0x01,0x00,0x00,0x00,
0xb4,0x7a,0x15,0x3d,0xa1,0x00,0x00,0x00,0x73,0x65,0x71,0x75,
0x65,0x6e,0x74,0x69,0x61,0x6c,0x5f,0x35,0x2f,0x62,0x61,0x74,
0x63,0x68,0x5f,0x6e,0x6f,0x72,0x6d,0x61,0x6c,0x69,0x7a,0x61,
0x74,0x69,0x6f,0x6e,0x5f,0x32,0x2f,0x62,0x61,0x74,0x63,0x68,
0x6e,0x6f,0x72,0x6d,0x2f,0x6d,0x75,0x6c,0x5f,0x31,0x3b,0x73,
0x65,0x71,0x75,0x65,0x6e,0x74,0x69,0x61,0x6c,0x5f,0x35,0x2f,
0x62,0x61,0x74,0x63,0x68,0x5f,0x6e,0x6f,0x72,0x6d,0x61,0x6c,
0x69,0x7a,0x61,0x74,0x69,0x6f,0x6e,0x5f,0x32,0x2f,0x62,0x61,
0x74,0x63,0x68,0x6e,0x6f,0x72,0x6d,0x2f,0x61,0x64,0x64,0x5f,
0x31,0x3b,0x73,0x65,0x71,0x75,0x65,0x6e,0x74,0x69,0x61,0x6c,
0x5f,0x35,0x2f,0x64,0x65,0x6e,0x73,0x65,0x5f,0x31,0x37,0x2f,
0x4d,0x61,0x74,0x4d,0x75,0x6c,0x3b,0x73,0x65,0x71,0x75,0x65,
0x6e,0x74,0x69,0x61,0x6c,0x5f,0x35,0x2f,0x64,0x65,0x6e,0x73,
0x65,0x5f,0x31,0x37,0x2f,0x42,0x69,0x61,0x73,0x41,0x64,0x64,
0x31,0x00,0x00,0x00,0x02,0x00,0x00,0x00,0x01,0x00,0x00,0x00,
0x01,0x00,0x00,0x00,0xc6,0xfd,0xff,0xff,0x00,0x00,0x00,0x01,
0x18,0x00,0x00,0x00,0x20,0x00,0x00,0x00,0x40,0x00,0x00,0x00,
0x0a,0x00,0x00,0x00,0x00,0x00,0x00,0x09,0xf8,0x00,0x00,0x00,
0x02,0x00,0x00,0x00,0xff,0xff,0xff,0xff,0x20,0x00,0x00,0x00,
0xf4,0xf8,0xff,0xff,0x08,0x00,0x00,0x00,0x14,0x00,0x00,0x00,
0x01,0x00,0x00,0x00,0x80,0xff,0xff,0xff,0xff,0xff,0xff,0xff,
0x00,0x00,0x00,0x00,0x01,0x00,0x00,0x00,0x00,0x3d,0x18,0x3b,
0xbc,0x00,0x00,0x00,0x73,0x65,0x71,0x75,0x65,0x6e,0x74,0x69,
0x61,0x6c,0x5f,0x35,0x2f,0x62,0x61,0x74,0x63,0x68,0x5f,0x6e,
0x6f,0x72,0x6d,0x61,0x6c,0x69,0x7a,0x61,0x74,0x69,0x6f,0x6e,
0x5f,0x31,0x2f,0x62,0x61,0x74,0x63,0x68,0x6e,0x6f,0x72,0x6d,
0x2f,0x6d,0x75,0x6c,0x5f,0x31,0x3b,0x73,0x65,0x71,0x75,0x65,
0x6e,0x74,0x69,0x61,0x6c,0x5f,0x35,0x2f,0x62,0x61,0x74,0x63,
0x68,0x5f,0x6e,0x6f,0x72,0x6d,0x61,0x6c,0x69,0x7a,0x61,0x74,
0x69,0x6f,0x6e,0x5f,0x31,0x2f,0x62,0x61,0x74,0x63,0x68,0x6e,
0x6f,0x72,0x6d,0x2f,0x61,0x64,0x64,0x5f,0x31,0x3b,0x73,0x65,
0x71,0x75,0x65,0x6e,0x74,0x69,0x61,0x6c,0x5f,0x35,0x2f,0x64,
0x65,0x6e,0x73,0x65,0x5f,0x31,0x36,0x2f,0x4d,0x61,0x74,0x4d,
0x75,0x6c,0x3b,0x73,0x65,0x71,0x75,0x65,0x6e,0x74,0x69,0x61,
0x6c,0x5f,0x35,0x2f,0x64,0x65,0x6e,0x73,0x65,0x5f,0x31,0x36,
0x2f,0x52,0x65,0x6c,0x75,0x3b,0x73,0x65,0x71,0x75,0x65,0x6e,
0x74,0x69,0x61,0x6c,0x5f,0x35,0x2f,0x64,0x65,0x6e,0x73,0x65,
0x5f,0x31,0x36,0x2f,0x42,0x69,0x61,0x73,0x41,0x64,0x64,0x31,
0x00,0x00,0x00,0x00,0x02,0x00,0x00,0x00,0x01,0x00,0x00,0x00,
0x20,0x00,0x00,0x00,0xe6,0xfe,0xff,0xff,0x00,0x00,0x00,0x01,
0x18,0x00,0x00,0x00,0x20,0x00,0x00,0x00,0x3c,0x00,0x00,0x00,
0x09,0x00,0x00,0x00,0x00,0x00,0x00,0x09,0xf0,0x00,0x00,0x00,
0x02,0x00,0x00,0x00,0xff,0xff,0xff,0xff,0x40,0x00,0x00,0x00,
0x14,0xfa,0xff,0xff,0x08,0x00,0x00,0x00,0x10,0x00,0x00,0x00,
0x01,0x00,0x00,0x00,0x80,0xff,0xff,0xff,0xff,0xff,0xff,0xff,
0x01,0x00,0x00,0x00,0x75,0xc4,0xdb,0x3a,0xb8,0x00,0x00,0x00,
0x73,0x65,0x71,0x75,0x65,0x6e,0x74,0x69,0x61,0x6c,0x5f,0x35,
0x2f,0x62,0x61,0x74,0x63,0x68,0x5f,0x6e,0x6f,0x72,0x6d,0x61,
0x6c,0x69,0x7a,0x61,0x74,0x69,0x6f,0x6e,0x2f,0x62,0x61,0x74,
0x63,0x68,0x6e,0x6f,0x72,0x6d,0x2f,0x6d,0x75,0x6c,0x5f,0x31,
0x3b,0x73,0x65,0x71,0x75,0x65,0x6e,0x74,0x69,0x61,0x6c,0x5f,
0x35,0x2f,0x62,0x61,0x74,0x63,0x68,0x5f,0x6e,0x6f,0x72,0x6d,
0x61,0x6c,0x69,0x7a,0x61,0x74,0x69,0x6f,0x6e,0x2f,0x62,0x61,
0x74,0x63,0x68,0x6e,0x6f,0x72,0x6d,0x2f,0x61,0x64,0x64,0x5f,
0x31,0x3b,0x73,0x65,0x71,0x75,0x65,0x6e,0x74,0x69,0x61,0x6c,
0x5f,0x35,0x2f,0x64,0x65,0x6e,0x73,0x65,0x5f,0x31,0x35,0x2f,
0x4d,0x61,0x74,0x4d,0x75,0x6c,0x3b,0x73,0x65,0x71,0x75,0x65,
0x6e,0x74,0x69,0x61,0x6c,0x5f,0x35,0x2f,0x64,0x65,0x6e,0x73,
0x65,0x5f,0x31,0x35,0x2f,0x52,0x65,0x6c,0x75,0x3b,0x73,0x65,
0x71,0x75,0x65,0x6e,0x74,0x69,0x61,0x6c,0x5f,0x35,0x2f,0x64,
0x65,0x6e,0x73,0x65,0x5f,0x31,0x35,0x2f,0x42,0x69,0x61,0x73,
0x41,0x64,0x64,0x31,0x00,0x00,0x00,0x00,0x02,0x00,0x00,0x00,
0x01,0x00,0x00,0x00,0x40,0x00,0x00,0x00,0x00,0x00,0x16,0x00,
0x20,0x00,0x1c,0x00,0x1b,0x00,0x14,0x00,0x10,0x00,0x0c,0x00,
0x00,0x00,0x00,0x00,0x08,0x00,0x07,0x00,0x16,0x00,0x00,0x00,
0x00,0x00,0x00,0x01,0x18,0x00,0x00,0x00,0x20,0x00,0x00,0x00,
0x40,0x00,0x00,0x00,0x08,0x00,0x00,0x00,0x00,0x00,0x00,0x09,
0x48,0x00,0x00,0x00,0x02,0x00,0x00,0x00,0xff,0xff,0xff,0xff,
0x24,0x00,0x00,0x00,0x44,0xfb,0xff,0xff,0x08,0x00,0x00,0x00,
0x14,0x00,0x00,0x00,0x01,0x00,0x00,0x00,0xff,0xff,0xff,0xff,
0xff,0xff,0xff,0xff,0x00,0x00,0x00,0x00,0x01,0x00,0x00,0x00,
0x81,0x80,0x00,0x3c,0x0c,0x00,0x00,0x00,0x74,0x66,0x6c,0x2e,
0x71,0x75,0x61,0x6e,0x74,0x69,0x7a,0x65,0x00,0x00,0x00,0x00,
0x02,0x00,0x00,0x00,0x01,0x00,0x00,0x00,0x24,0x00,0x00,0x00,
0xba,0xfb,0xff,0xff,0x00,0x00,0x00,0x01,0x14,0x00,0x00,0x00,
0x34,0x00,0x00,0x00,0x07,0x00,0x00,0x00,0x00,0x00,0x00,0x09,
0xe4,0x00,0x00,0x00,0xa4,0xfb,0xff,0xff,0x08,0x00,0x00,0x00,
0x14,0x00,0x00,0x00,0x01,0x00,0x00,0x00,0x00,0x00,0x00,0x00,
0x00,0x00,0x00,0x00,0x00,0x00,0x00,0x00,0x01,0x00,0x00,0x00,
0x7f,0x70,0x8d,0x3a,0xb7,0x00,0x00,0x00,0x73,0x65,0x71,0x75,
0x65,0x6e,0x74,0x69,0x61,0x6c,0x5f,0x35,0x2f,0x62,0x61,0x74,
0x63,0x68,0x5f,0x6e,0x6f,0x72,0x6d,0x61,0x6c,0x69,0x7a,0x61,
0x74,0x69,0x6f,0x6e,0x2f,0x62,0x61,0x74,0x63,0x68,0x6e,0x6f,
0x72,0x6d,0x2f,0x6d,0x75,0x6c,0x5f,0x31,0x3b,0x73,0x65,0x71,
0x75,0x65,0x6e,0x74,0x69,0x61,0x6c,0x5f,0x35,0x2f,0x62,0x61,
0x74,0x63,0x68,0x5f,0x6e,0x6f,0x72,0x6d,0x61,0x6c,0x69,0x7a,
0x61,0x74,0x69,0x6f,0x6e,0x2f,0x62,0x61,0x74,0x63,0x68,0x6e,
0x6f,0x72,0x6d,0x2f,0x61,0x64,0x64,0x5f,0x31,0x3b,0x73,0x65,
0x71,0x75,0x65,0x6e,0x74,0x69,0x61,0x6c,0x5f,0x35,0x2f,0x64,
0x65,0x6e,0x73,0x65,0x5f,0x31,0x35,0x2f,0x4d,0x61,0x74,0x4d,
0x75,0x6c,0x3b,0x73,0x65,0x71,0x75,0x65,0x6e,0x74,0x69,0x61,
0x6c,0x5f,0x35,0x2f,0x64,0x65,0x6e,0x73,0x65,0x5f,0x31,0x35,
0x2f,0x52,0x65,0x6c,0x75,0x3b,0x73,0x65,0x71,0x75,0x65,0x6e,
0x74,0x69,0x61,0x6c,0x5f,0x35,0x2f,0x64,0x65,0x6e,0x73,0x65,
0x5f,0x31,0x35,0x2f,0x42,0x69,0x61,0x73,0x41,0x64,0x64,0x00,
0x02,0x00,0x00,0x00,0x40,0x00,0x00,0x00,0x24,0x00,0x00,0x00,
0xc2,0xfc,0xff,0xff,0x00,0x00,0x00,0x01,0x14,0x00,0x00,0x00,
0x30,0x00,0x00,0x00,0x06,0x00,0x00,0x00,0x00,0x00,0x00,0x02,
0x80,0x00,0x00,0x00,0xac,0xfc,0xff,0xff,0x08,0x00,0x00,0x00,
0x10,0x00,0x00,0x00,0x01,0x00,0x00,0x00,0x00,0x00,0x00,0x00,
0x00,0x00,0x00,0x00,0x01,0x00,0x00,0x00,0x7e,0xfe,0x0d,0x37,
0x55,0x00,0x00,0x00,0x73,0x65,0x71,0x75,0x65,0x6e,0x74,0x69,
0x61,0x6c,0x5f,0x35,0x2f,0x64,0x65,0x6e,0x73,0x65,0x5f,0x31,
0x35,0x2f,0x4d,0x61,0x74,0x4d,0x75,0x6c,0x3b,0x73,0x65,0x71,
0x75,0x65,0x6e,0x74,0x69,0x61,0x6c,0x5f,0x35,0x2f,0x64,0x65,
0x6e,0x73,0x65,0x5f,0x31,0x35,0x2f,0x52,0x65,0x6c,0x75,0x3b,
0x73,0x65,0x71,0x75,0x65,0x6e,0x74,0x69,0x61,0x6c,0x5f,0x35,
0x2f,0x64,0x65,0x6e,0x73,0x65,0x5f,0x31,0x35,0x2f,0x42,0x69,
0x61,0x73,0x41,0x64,0x64,0x00,0x00,0x00,0x01,0x00,0x00,0x00,
0x40,0x00,0x00,0x00,0x62,0xfd,0xff,0xff,0x00,0x00,0x00,0x01,
0x14,0x00,0x00,0x00,0x30,0x00,0x00,0x00,0x05,0x00,0x00,0x00,
0x00,0x00,0x00,0x09,0xe4,0x00,0x00,0x00,0x4c,0xfd,0xff,0xff,
0x08,0x00,0x00,0x00,0x10,0x00,0x00,0x00,0x01,0x00,0x00,0x00,
0x00,0x00,0x00,0x00,0x00,0x00,0x00,0x00,0x01,0x00,0x00,0x00,
0x0f,0x43,0x0f,0x3c,0xbb,0x00,0x00,0x00,0x73,0x65,0x71,0x75,
0x65,0x6e,0x74,0x69,0x61,0x6c,0x5f,0x35,0x2f,0x62,0x61,0x74,
0x63,0x68,0x5f,0x6e,0x6f,0x72,0x6d,0x61,0x6c,0x69,0x7a,0x61,
0x74,0x69,0x6f,0x6e,0x5f,0x31,0x2f,0x62,0x61,0x74,0x63,0x68,
0x6e,0x6f,0x72,0x6d,0x2f,0x6d,0x75,0x6c,0x5f,0x31,0x3b,0x73,
0x65,0x71,0x75,0x65,0x6e,0x74,0x69,0x61,0x6c,0x5f,0x35,0x2f,
0x62,0x61,0x74,0x63,0x68,0x5f,0x6e,0x6f,0x72,0x6d,0x61,0x6c,
0x69,0x7a,0x61,0x74,0x69,0x6f,0x6e,0x5f,0x31,0x2f,0x62,0x61,
0x74,0x63,0x68,0x6e,0x6f,0x72,0x6d,0x2f,0x61,0x64,0x64,0x5f,
0x31,0x3b,0x73,0x65,0x71,0x75,0x65,0x6e,0x74,0x69,0x61,0x6c,
0x5f,0x35,0x2f,0x64,0x65,0x6e,0x73,0x65,0x5f,0x31,0x36,0x2f,
0x4d,0x61,0x74,0x4d,0x75,0x6c,0x3b,0x73,0x65,0x71,0x75,0x65,
0x6e,0x74,0x69,0x61,0x6c,0x5f,0x35,0x2f,0x64,0x65,0x6e,0x73,
0x65,0x5f,0x31,0x36,0x2f,0x52,0x65,0x6c,0x75,0x3b,0x73,0x65,
0x71,0x75,0x65,0x6e,0x74,0x69,0x61,0x6c,0x5f,0x35,0x2f,0x64,
0x65,0x6e,0x73,0x65,0x5f,0x31,0x36,0x2f,0x42,0x69,0x61,0x73,
0x41,0x64,0x64,0x00,0x02,0x00,0x00,0x00,0x20,0x00,0x00,0x00,
0x40,0x00,0x00,0x00,0x6a,0xfe,0xff,0xff,0x00,0x00,0x00,0x01,
0x14,0x00,0x00,0x00,0x30,0x00,0x00,0x00,0x04,0x00,0x00,0x00,
0x00,0x00,0x00,0x02,0x80,0x00,0x00,0x00,0x54,0xfe,0xff,0xff,
0x08,0x00,0x00,0x00,0x10,0x00,0x00,0x00,0x01,0x00,0x00,0x00,
0x00,0x00,0x00,0x00,0x00,0x00,0x00,0x00,0x01,0x00,0x00,0x00,
0x9d,0xf8,0x75,0x37,0x55,0x00,0x00,0x00,0x73,0x65,0x71,0x75,
0x65,0x6e,0x74,0x69,0x61,0x6c,0x5f,0x35,0x2f,0x64,0x65,0x6e,
0x73,0x65,0x5f,0x31,0x36,0x2f,0x4d,0x61,0x74,0x4d,0x75,0x6c,
0x3b,0x73,0x65,0x71,0x75,0x65,0x6e,0x74,0x69,0x61,0x6c,0x5f,
0x35,0x2f,0x64,0x65,0x6e,0x73,0x65,0x5f,0x31,0x36,0x2f,0x52,
0x65,0x6c,0x75,0x3b,0x73,0x65,0x71,0x75,0x65,0x6e,0x74,0x69,
0x61,0x6c,0x5f,0x35,0x2f,0x64,0x65,0x6e,0x73,0x65,0x5f,0x31,
0x36,0x2f,0x42,0x69,0x61,0x73,0x41,0x64,0x64,0x00,0x00,0x00,
0x01,0x00,0x00,0x00,0x20,0x00,0x00,0x00,0x0a,0xff,0xff,0xff,
0x00,0x00,0x00,0x01,0x14,0x00,0x00,0x00,0x34,0x00,0x00,0x00,
0x03,0x00,0x00,0x00,0x00,0x00,0x00,0x09,0xd0,0x00,0x00,0x00,
0xf4,0xfe,0xff,0xff,0x08,0x00,0x00,0x00,0x14,0x00,0x00,0x00,
0x01,0x00,0x00,0x00,0x00,0x00,0x00,0x00,0x00,0x00,0x00,0x00,
0x00,0x00,0x00,0x00,0x01,0x00,0x00,0x00,0x42,0x1f,0x9f,0x3c,
0xa0,0x00,0x00,0x00,0x73,0x65,0x71,0x75,0x65,0x6e,0x74,0x69,
0x61,0x6c,0x5f,0x35,0x2f,0x62,0x61,0x74,0x63,0x68,0x5f,0x6e,
0x6f,0x72,0x6d,0x61,0x6c,0x69,0x7a,0x61,0x74,0x69,0x6f,0x6e,
0x5f,0x32,0x2f,0x62,0x61,0x74,0x63,0x68,0x6e,0x6f,0x72,0x6d,
0x2f,0x6d,0x75,0x6c,0x5f,0x31,0x3b,0x73,0x65,0x71,0x75,0x65,
0x6e,0x74,0x69,0x61,0x6c,0x5f,0x35,0x2f,0x62,0x61,0x74,0x63,
0x68,0x5f,0x6e,0x6f,0x72,0x6d,0x61,0x6c,0x69,0x7a,0x61,0x74,
0x69,0x6f,0x6e,0x5f,0x32,0x2f,0x62,0x61,0x74,0x63,0x68,0x6e,
0x6f,0x72,0x6d,0x2f,0x61,0x64,0x64,0x5f,0x31,0x3b,0x73,0x65,
0x71,0x75,0x65,0x6e,0x74,0x69,0x61,0x6c,0x5f,0x35,0x2f,0x64,
0x65,0x6e,0x73,0x65,0x5f,0x31,0x37,0x2f,0x4d,0x61,0x74,0x4d,
0x75,0x6c,0x3b,0x73,0x65,0x71,0x75,0x65,0x6e,0x74,0x69,0x61,
0x6c,0x5f,0x35,0x2f,0x64,0x65,0x6e,0x73,0x65,0x5f,0x31,0x37,
0x2f,0x42,0x69,0x61,0x73,0x41,0x64,0x64,0x00,0x00,0x00,0x00,
0x02,0x00,0x00,0x00,0x01,0x00,0x00,0x00,0x20,0x00,0x00,0x00,
0x00,0x00,0x16,0x00,0x1c,0x00,0x18,0x00,0x17,0x00,0x10,0x00,
0x0c,0x00,0x08,0x00,0x00,0x00,0x00,0x00,0x00,0x00,0x07,0x00,
0x16,0x00,0x00,0x00,0x00,0x00,0x00,0x01,0x20,0x00,0x00,0x00,
0x40,0x00,0x00,0x00,0x02,0x00,0x00,0x00,0x00,0x00,0x00,0x02,
0x74,0x00,0x00,0x00,0x0c,0x00,0x0c,0x00,0x00,0x00,0x00,0x00,
0x08,0x00,0x04,0x00,0x0c,0x00,0x00,0x00,0x08,0x00,0x00,0x00,
0x14,0x00,0x00,0x00,0x01,0x00,0x00,0x00,0x00,0x00,0x00,0x00,
0x00,0x00,0x00,0x00,0x00,0x00,0x00,0x00,0x01,0x00,0x00,0x00,
0xf3,0x40,0x3d,0x38,0x3a,0x00,0x00,0x00,0x73,0x65,0x71,0x75,
0x65,0x6e,0x74,0x69,0x61,0x6c,0x5f,0x35,0x2f,0x64,0x65,0x6e,
0x73,0x65,0x5f,0x31,0x37,0x2f,0x4d,0x61,0x74,0x4d,0x75,0x6c,
0x3b,0x73,0x65,0x71,0x75,0x65,0x6e,0x74,0x69,0x61,0x6c,0x5f,
0x35,0x2f,0x64,0x65,0x6e,0x73,0x65,0x5f,0x31,0x37,0x2f,0x42,
0x69,0x61,0x73,0x41,0x64,0x64,0x00,0x00,0x01,0x00,0x00,0x00,
0x01,0x00,0x00,0x00,0x00,0x00,0x16,0x00,0x1c,0x00,0x18,0x00,
0x00,0x00,0x14,0x00,0x10,0x00,0x0c,0x00,0x00,0x00,0x00,0x00,
0x08,0x00,0x07,0x00,0x16,0x00,0x00,0x00,0x00,0x00,0x00,0x01,
0x14,0x00,0x00,0x00,0x20,0x00,0x00,0x00,0x20,0x00,0x00,0x00,
0x01,0x00,0x00,0x00,0x38,0x00,0x00,0x00,0x02,0x00,0x00,0x00,
0xff,0xff,0xff,0xff,0x24,0x00,0x00,0x00,0x04,0x00,0x04,0x00,
0x04,0x00,0x00,0x00,0x19,0x00,0x00,0x00,0x73,0x65,0x72,0x76,
0x69,0x6e,0x67,0x5f,0x64,0x65,0x66,0x61,0x75,0x6c,0x74,0x5f,
0x69,0x6e,0x70,0x75,0x74,0x5f,0x36,0x3a,0x30,0x00,0x00,0x00,
0x02,0x00,0x00,0x00,0x01,0x00,0x00,0x00,0x24,0x00,0x00,0x00,
0x04,0x00,0x00,0x00,0x58,0x00,0x00,0x00,0x38,0x00,0x00,0x00,
0x18,0x00,0x00,0x00,0x04,0x00,0x00,0x00,0xe0,0xff,0xff,0xff,
0x06,0x00,0x00,0x00,0x02,0x00,0x00,0x00,0x00,0x00,0x00,0x06,
0xf0,0xff,0xff,0xff,0x0e,0x00,0x00,0x00,0x02,0x00,0x00,0x00,
0x00,0x00,0x00,0x0e,0x0c,0x00,0x10,0x00,0x0f,0x00,0x00,0x00,
0x08,0x00,0x04,0x00,0x0c,0x00,0x00,0x00,0x09,0x00,0x00,0x00,
0x04,0x00,0x00,0x00,0x00,0x00,0x00,0x09,0x0c,0x00,0x0c,0x00,
0x0b,0x00,0x00,0x00,0x00,0x00,0x04,0x00,0x0c,0x00,0x00,0x00,
0x72,0x00,0x00,0x00,0x00,0x00,0x00,0x72
};

#endif //PHISHINGWEBSITES_ESP32_H